<unk>	0
<s>	0
</s>	0
▁t	-0
▁a	-1
he	-2
in	-3
▁s	-4
▁w	-5
ou	-6
re	-7
ha	-8
nd	-9
▁the	-10
▁o	-11
it	-12
er	-13
▁b	-14
▁m	-15
ed	-16
ing	-17
▁c	-18
▁f	-19
▁he	-20
en	-21
is	-22
▁to	-23
▁and	-24
on	-25
as	-26
▁d	-27
▁h	-28
ll	-29
▁I	-30
no	-31
▁l	-32
▁y	-33
hat	-34
or	-35
▁in	-36
▁p	-37
▁you	-38
es	-39
▁ha	-40
▁of	-41
om	-42
an	-43
▁"	-44
ly	-45
▁be	-46
at	-47
im	-48
ar	-49
▁no	-50
▁g	-51
▁that	-52
▁it	-53
ve	-54
le	-55
▁was	-56
▁on	-57
ut	-58
id	-59
▁e	-60
st	-61
▁th	-62
gh	-63
et	-64
ce	-65
se	-66
ay	-67
ld	-68
ov	-69
▁st	-70
▁not	-71
ow	-72
ent	-73
▁at	-74
▁u	-75
ith	-76
ri	-77
▁his	-78
▁with	-79
▁him	-80
▁her	-81
ch	-82
▁re	-83
▁for	-84
ver	-85
oo	-86
ir	-87
ion	-88
▁as	-89
al	-90
out	-91
▁H	-92
ght	-93
▁R	-94
▁A	-95
▁had	-96
ere	-97
ik	-98
▁S	-99
ad	-100
▁r	-101
ould	-102
▁me	-103
ter	-104
▁T	-105
▁is	-106
ot	-107
ol	-108
▁an	-109
▁wh	-110
▁k	-111
her	-112
ome	-113
▁she	-114
▁su	-115
▁all	-116
ill	-117
ee	-118
ct	-119
ain	-120
▁P	-121
▁He	-122
▁so	-123
am	-124
▁have	-125
▁but	-126
ak	-127
ur	-128
ck	-129
,"	-130
?"	-131
▁n	-132
▁do	-133
hing	-134
."	-135
▁The	-136
if	-137
ess	-138
ia	-139
▁my	-140
and	-141
ore	-142
lf	-143
pe	-144
ikov	-145
nikov	-146
▁W	-147
ell	-148
▁up	-149
ic	-150
▁are	-151
very	-152
ook	-153
▁con	-154
▁thou	-155
▁fr	-156
ask	-157
na	-158
askol	-159
askolnikov	-160
▁Raskolnikov	-161
▁de	-162
ble	-163
▁your	-164
▁sh	-165
self	-166
our	-167
ss	-168
ust	-169
▁al	-170
▁sa	-171
▁what	-172
um	-173
qu	-174
ant	-175
ul	-176
▁out	-177
!"	-178
one	-179
ro	-180
▁were	-181
▁B	-182
▁see	-183
▁from	-184
▁ab	-185
ous	-186
--	-187
▁ex	-188
now	-189
▁look	-190
ood	-191
▁too	-192
▁int	-193
ven	-194
▁ag	-195
ight	-196
ast	-197
▁know	-198
▁And	-199
all	-200
▁am	-201
▁them	-202
ra	-203
pp	-204
▁there	-205
ive	-206
il	-207
▁man	-208
You	-209
▁would	-210
dd	-211
us	-212
▁they	-213
▁D	-214
▁this	-215
ist	-216
▁go	-217
▁one	-218
▁been	-219
▁whe	-220
rov	-221
od	-222
ame	-223
▁But	-224
▁fa	-225
▁did	-226
▁ne	-227
▁wor	-228
hin	-229
un	-230
ther	-231
ge	-232
ard	-233
▁some	-234
▁will	-235
▁qu	-236
ano	-237
anov	-238
▁could	-239
▁by	-240
▁about	-241
▁said	-242
est	-243
ation	-244
are	-245
▁or	-246
art	-247
▁now	-248
ike	-249
au	-250
ind	-251
▁le	-252
▁un	-253
itch	-254
▁po	-255
way	-256
▁who	-257
em	-258
▁j	-259
hed	-260
oun	-261
ered	-262
ake	-263
▁se	-264
▁tim	-265
▁v	-266
▁like	-267
▁again	-268
az	-269
▁we	-270
ost	-271
▁beg	-272
ice	-273
▁L	-274
pt	-275
ie	-276
▁very	-277
ers	-278
ure	-279
▁if	-280
▁can	-281
ink	-282
ry	-283
ong	-284
own	-285
itt	-286
ide	-287
ya	-288
▁N	-289
nder	-290
▁Pet	-291
ried	-292
▁how	-293
▁whi	-294
▁come	-295
anovna	-296
▁more	-297
▁only	-298
▁She	-299
ort	-300
▁ro	-301
▁It	-302
▁into	-303
▁though	-304
onia	-305
ound	-306
▁af	-307
▁M	-308
ps	-309
▁You	-310
▁Sonia	-311
able	-312
▁any	-313
ress	-314
▁has	-315
ite	-316
▁com	-317
▁time	-318
ig	-319
ked	-320
han	-321
ate	-322
▁say	-323
▁fe	-324
ater	-325
omet	-326
urn	-327
▁Petrov	-328
▁don	-329
▁even	-330
ough	-331
▁br	-332
other	-333
imp	-334
▁off	-335
▁went	-336
fore	-337
▁sha	-338
umi	-339
umihin	-340
▁every	-341
▁when	-342
▁Raz	-343
▁hand	-344
dden	-345
▁somet	-346
▁Razumihin	-347
▁over	-348
reat	-349
▁then	-350
▁fl	-351
▁once	-352
▁thought	-353
ious	-354
▁himself	-355
ence	-356
▁under	-357
▁before	-358
ple	-359
▁tw	-360
ass	-361
right	-362
▁Iv	-363
ave	-364
ally	-365
ity	-366
ounia	-367
▁down	-368
thing	-369
▁sudden	-370
vid	-371
▁room	-372
hy	-373
ne	-374
med	-375
▁Dounia	-376
▁mad	-377
▁str	-378
▁pre	-379
▁which	-380
▁cl	-381
▁want	-382
▁must	-383
▁Ivanovna	-384
▁co	-385
▁K	-386
▁sp	-387
▁looked	-388
th	-389
▁just	-390
red	-391
ittle	-392
▁last	-393
▁here	-394
▁Petrovitch	-395
▁day	-396
▁think	-397
▁O	-398
▁per	-399
ag	-400
ack	-401
ose	-402
▁turn	-403
▁something	-404
ened	-405
▁little	-406
ull	-407
▁bl	-408
wn	-409
ance	-410
▁us	-411
ect	-412
bl	-413
▁such	-414
▁'	-415
▁door	-416
▁still	-417
ap	-418
▁ey	-419
ness	-420
▁get	-421
▁way	-422
ady	-423
▁spe	-424
hi	-425
▁pr	-426
▁began	-427
▁away	-428
▁suddenly	-429
▁pl	-430
▁tr	-431
▁rem	-432
▁fir	-433
▁nothing	-434
▁should	-435
▁after	-436
▁cr	-437
▁tell	-438
▁pe	-439
▁face	-440
ert	-441
▁ar	-442
▁eyes	-443
▁thing	-444
ud	-445
▁dis	-446
▁wom	-447
▁What	-448
▁came	-449
▁cried	-450
▁dr	-451
king	-452
▁_	-453
What	-454
fa	-455
ful	-456
rig	-457
day	-458
▁bet	-459
▁other	-460
▁sm	-461
▁G	-462
lov	-463
ved	-464
▁sc	-465
most	-466
ear	-467
▁made	-468
▁two	-469
▁let	-470
▁first	-471
ick	-472
os	-473
▁word	-474
▁right	-475
▁underst	-476
aï	-477
ng	-478
ase	-479
ina	-480
ree	-481
▁bec	-482
▁mom	-483
▁their	-484
▁moment	-485
ting	-486
end	-487
aterina	-488
▁gl	-489
▁bel	-490
▁good	-491
iry	-492
ving	-493
▁ind	-494
▁put	-495
▁without	-496
Yes	-497
▁ob	-498
▁may	-499
▁op	-500
▁exp	-501
▁thr	-502
▁old	-503
aïlov	-504
vidrig	-505
▁mother	-506
▁Katerina	-507
vidrigaïlov	-508
ated	-509
haps	-510
▁Rod	-511
cc	-512
▁Svidrigaïlov	-513
▁F	-514
orf	-515
orfiry	-516
▁almost	-517
▁tal	-518
▁long	-519
▁woman	-520
ment	-521
anc	-522
ft	-523
che	-524
▁Rom	-525
▁head	-526
▁than	-527
eep	-528
▁Porfiry	-529
ily	-530
▁yes	-531
uch	-532
ather	-533
nother	-534
ause	-535
pect	-536
here	-537
▁min	-538
ff	-539
▁why	-540
▁back	-541
▁cour	-542
▁looking	-543
co	-544
air	-545
▁pro	-546
▁understand	-547
cl	-548
ish	-549
▁cont	-550
▁Z	-551
eel	-552
ife	-553
▁cons	-554
▁great	-555
aking	-556
▁make	-557
lt	-558
ber	-559
hild	-560
▁lau	-561
▁asked	-562
▁another	-563
▁pass	-564
▁belie	-565
ute	-566
▁child	-567
▁seemed	-568
ning	-569
▁shall	-570
ise	-571
▁much	-572
▁going	-573
▁des	-574
▁imp	-575
▁own	-576
▁same	-577
▁cha	-578
▁They	-579
sw	-580
age	-581
ies	-582
▁take	-583
▁There	-584
▁turned	-585
ons	-586
otr	-587
▁ho	-588
▁stood	-589
ange	-590
yotr	-591
▁add	-592
li	-593
▁lo	-594
▁cle	-595
▁answ	-596
▁feel	-597
▁mean	-598
ched	-599
ople	-600
ertain	-601
atter	-602
▁felt	-603
▁part	-604
ty	-605
ren	-606
▁course	-607
oney	-608
▁pa	-609
▁stre	-610
▁took	-611
▁quite	-612
estion	-613
▁Pyotr	-614
man	-615
iness	-616
▁might	-617
ary	-618
▁money	-619
▁So	-620
▁simp	-621
less	-622
▁happ	-623
▁people	-624
▁wa	-625
▁myself	-626
▁believe	-627
▁C	-628
▁wal	-629
ought	-630
▁hands	-631
▁question	-632
hen	-633
ign	-634
ire	-635
▁wr	-636
▁kne	-637
▁heard	-638
▁remem	-639
ward	-640
▁perhaps	-641
▁att	-642
▁(	-643
ace	-644
ted	-645
ouse	-646
▁everything	-647
ens	-648
ine	-649
▁gr	-650
▁saw	-651
▁mind	-652
▁res	-653
ction	-654
te	-655
▁li	-656
pped	-657
▁got	-658
bly	-659
▁where	-660
ue	-661
▁inde	-662
urd	-663
ared	-664
▁well	-665
ci	-666
▁never	-667
ully	-668
▁our	-669
▁That	-670
▁heart	-671
ense	-672
ible	-673
▁certain	-674
ner	-675
▁en	-676
▁anything	-677
nt	-678
ears	-679
ister	-680
▁strange	-681
▁inst	-682
And	-683
ised	-684
▁ide	-685
ank	-686
▁dre	-687
▁sil	-688
▁because	-689
ied	-690
ways	-691
▁Mar	-692
terday	-693
▁better	-694
▁through	-695
▁left	-696
▁upon	-697
▁pers	-698
ced	-699
▁always	-700
▁pol	-701
▁life	-702
be	-703
sit	-704
unk	-705
▁In	-706
▁Th	-707
▁ste	-708
▁indeed	-709
▁sister	-710
▁sat	-711
▁knew	-712
▁young	-713
int	-714
ria	-715
▁Why	-716
▁sort	-717
▁told	-718
▁stand	-719
▁At	-720
ings	-721
▁fact	-722
▁forg	-723
▁most	-724
▁really	-725
▁simply	-726
▁yesterday	-727
But	-728
per	-729
▁ill	-730
▁won	-731
fully	-732
▁three	-733
▁yourself	-734
▁E	-735
lex	-736
▁Alex	-737
ach	-738
ained	-739
▁Alexand	-740
arly	-741
▁ser	-742
▁dist	-743
▁shout	-744
▁herself	-745
ged	-746
rok	-747
▁Pul	-748
rovna	-749
rying	-750
cheria	-751
▁Pulcheria	-752
▁Alexandrovna	-753
▁im	-754
▁fell	-755
up	-756
▁Lu	-757
ject	-758
▁ter	-759
ently	-760
▁conf	-761
▁speak	-762
▁pres	-763
▁table	-764
▁whole	-765
▁brother	-766
irl	-767
oss	-768
▁ad	-769
ating	-770
tered	-771
▁does	-772
dot	-773
ret	-774
▁ir	-775
▁new	-776
▁Rodya	-777
▁drunk	-778
▁house	-779
▁round	-780
▁minute	-781
icul	-782
oubl	-783
▁acc	-784
No	-785
Why	-786
vdot	-787
▁bus	-788
▁ins	-789
vdotya	-790
▁matter	-791
▁street	-792
▁Romanovna	-793
iff	-794
▁give	-795
▁wait	-796
ressed	-797
atch	-798
zhin	-799
▁His	-800
▁end	-801
▁girl	-802
▁place	-803
emy	-804
owed	-805
▁hel	-806
▁find	-807
▁murd	-808
▁Luzhin	-809
▁children	-810
el	-811
airs	-812
ying	-813
▁ang	-814
▁care	-815
▁gave	-816
▁open	-817
▁Avdotya	-818
▁answered	-819
It	-820
ile	-821
▁em	-822
aken	-823
▁sur	-824
ering	-825
▁help	-826
▁soon	-827
▁remember	-828
iss	-829
ock	-830
▁fo	-831
▁ent	-832
▁mar	-833
▁police	-834
rem	-835
▁har	-836
emyon	-837
▁Well	-838
▁list	-839
▁things	-840
ka	-841
▁ap	-842
wards	-843
▁home	-844
orr	-845
▁bo	-846
▁set	-847
oth	-848
▁sl	-849
▁ass	-850
▁rep	-851
▁sin	-852
▁rest	-853
▁seen	-854
▁posit	-855
▁Semyon	-856
iz	-857
ang	-858
▁If	-859
▁aw	-860
▁God	-861
▁ask	-862
ushed	-863
▁wind	-864
▁work	-865
iously	-866
anovitch	-867
ix	-868
ool	-869
ory	-870
▁keep	-871
eas	-872
▁expl	-873
▁these	-874
▁walked	-875
ves	-876
▁ke	-877
▁laugh	-878
▁night	-879
▁es	-880
isit	-881
▁lod	-882
▁diff	-883
▁idea	-884
▁being	-885
▁those	-886
He	-887
ively	-888
▁half	-889
▁read	-890
▁while	-891
oud	-892
ount	-893
▁fanc	-894
oubles	-895
▁dec	-896
▁hur	-897
▁mon	-898
▁mor	-899
aught	-900
▁poss	-901
▁vo	-902
erest	-903
riend	-904
▁crim	-905
▁Semyonov	-906
ath	-907
ces	-908
▁hear	-909
▁roubles	-910
uck	-911
▁men	-912
ready	-913
▁wanted	-914
ms	-915
get	-916
mit	-917
▁We	-918
ever	-919
that	-920
▁yet	-921
▁friend	-922
▁already	-923
use	-924
▁Nik	-925
▁cor	-926
▁alone	-927
▁inter	-928
▁Rodion	-929
▁window	-930
raid	-931
▁exc	-932
▁run	-933
▁sto	-934
▁begin	-935
▁light	-936
▁years	-937
ser	-938
amet	-939
asya	-940
imov	-941
vers	-942
▁bes	-943
▁hon	-944
▁ple	-945
▁lodg	-946
ametov	-947
▁visit	-948
▁words	-949
Oh	-950
pr	-951
ru	-952
sp	-953
▁Am	-954
aint	-955
▁hast	-956
astasya	-957
▁shouted	-958
▁interest	-959
▁standing	-960
ark	-961
lly	-962
▁How	-963
▁inf	-964
▁ran	-965
▁ref	-966
▁conv	-967
▁didn	-968
▁need	-969
▁point	-970
▁afraid	-971
▁Zametov	-972
ord	-973
▁Do	-974
▁hu	-975
▁te	-976
▁done	-977
▁flat	-978
gether	-979
▁notic	-980
ossimov	-981
uttered	-982
▁business	-983
ok	-984
▁Le	-985
ctly	-986
▁case	-987
▁land	-988
▁added	-989
▁Zossimov	-990
▁Romanovitch	-991
led	-992
▁la	-993
ions	-994
ross	-995
▁hour	-996
▁drink	-997
▁least	-998
▁smile	-999
▁Nastasya	-1000
ep	-1001
iat	-1002
▁Mr	-1003
▁ra	-1004
▁Then	-1005
▁chan	-1006
▁found	-1007
▁voice	-1008
.'	-1009
▁gen	-1010
▁brok	-1011
by	-1012
arm	-1013
cept	-1014
▁All	-1015
▁cap	-1016
▁gre	-1017
▁hat	-1018
▁stra	-1019
▁talk	-1020
▁father	-1021
bt	-1022
▁ac	-1023
iven	-1024
▁gone	-1025
▁side	-1026
▁rather	-1027
▁present	-1028
ial	-1029
▁No	-1030
▁gu	-1031
▁sw	-1032
cond	-1033
ical	-1034
▁For	-1035
▁This	-1036
▁	-1037
e	-1038
t	-1039
a	-1040
o	-1041
n	-1042
i	-1043
h	-1044
s	-1045
r	-1046
d	-1047
l	-1048
u	-1049
m	-1050
y	-1051
w	-1052
c	-1053
g	-1054
f	-1055
,	-1056
p	-1057
b	-1058
v	-1059
.	-1060
k	-1061
"	-1062
I	-1063
'	-1064
!	-1065
?	-1066
-	-1067
A	-1068
H	-1069
T	-1070
R	-1071
S	-1072
W	-1073
P	-1074
x	-1075
;	-1076
z	-1077
B	-1078
Y	-1079
q	-1080
D	-1081
j	-1082
N	-1083
L	-1084
_	-1085
M	-1086
O	-1087
G	-1088
K	-1089
F	-1090
:	-1091
C	-1092
ï	-1093
E	-1094
Z	-1095
(	-1096
