<unk>	0
<s>	0
</s>	0
▁t	-0
▁a	-1
he	-2
in	-3
▁s	-4
▁w	-5
ou	-6
re	-7
ha	-8
nd	-9
▁the	-10
▁o	-11
it	-12
er	-13
▁b	-14
▁m	-15
ed	-16
ing	-17
▁c	-18
▁f	-19
▁he	-20
en	-21
is	-22
▁to	-23
▁and	-24
on	-25
as	-26
▁d	-27
▁h	-28
ll	-29
▁I	-30
no	-31
▁l	-32
▁y	-33
hat	-34
or	-35
▁in	-36
▁p	-37
▁you	-38
..	-39
es	-40
▁ha	-41
▁of	-42
om	-43
an	-44
▁"	-45
ly	-46
▁be	-47
at	-48
im	-49
ar	-50
▁no	-51
▁g	-52
▁that	-53
▁it	-54
ve	-55
le	-56
▁was	-57
▁on	-58
ut	-59
id	-60
▁e	-61
st	-62
▁th	-63
gh	-64
et	-65
ce	-66
se	-67
ay	-68
ld	-69
ov	-70
▁st	-71
▁not	-72
ow	-73
ent	-74
▁at	-75
▁u	-76
ith	-77
ri	-78
▁his	-79
▁with	-80
▁him	-81
▁her	-82
ch	-83
▁re	-84
▁for	-85
ver	-86
oo	-87
ir	-88
ion	-89
▁as	-90
al	-91
out	-92
▁H	-93
ght	-94
▁R	-95
▁A	-96
▁had	-97
ere	-98
ik	-99
▁S	-100
ad	-101
▁r	-102
ould	-103
▁me	-104
ter	-105
▁T	-106
▁is	-107
ot	-108
ol	-109
▁an	-110
▁wh	-111
▁k	-112
her	-113
ome	-114
▁she	-115
▁su	-116
▁all	-117
ill	-118
ee	-119
ct	-120
ain	-121
▁P	-122
▁He	-123
▁so	-124
am	-125
▁have	-126
▁but	-127
ak	-128
...	-129
ur	-130
ck	-131
,"	-132
▁n	-133
▁do	-134
?"	-135
hing	-136
▁The	-137
if	-138
ess	-139
ia	-140
▁my	-141
and	-142
ore	-143
lf	-144
pe	-145
."	-146
ikov	-147
nikov	-148
▁W	-149
ell	-150
▁up	-151
ic	-152
▁are	-153
very	-154
ook	-155
▁con	-156
▁thou	-157
▁fr	-158
ask	-159
na	-160
askol	-161
askolnikov	-162
▁Raskolnikov	-163
▁de	-164
ble	-165
▁your	-166
▁sh	-167
self	-168
our	-169
ss	-170
ust	-171
▁al	-172
▁sa	-173
▁what	-174
um	-175
qu	-176
ant	-177
ul	-178
▁out	-179
!"	-180
one	-181
ro	-182
▁were	-183
▁B	-184
▁see	-185
▁from	-186
▁ab	-187
....	-188
ous	-189
--	-190
▁ex	-191
now	-192
▁look	-193
ood	-194
▁too	-195
▁int	-196
ven	-197
▁ag	-198
ight	-199
ast	-200
▁know	-201
▁And	-202
all	-203
▁am	-204
▁them	-205
ra	-206
pp	-207
▁there	-208
ive	-209
il	-210
▁man	-211
You	-212
▁would	-213
dd	-214
us	-215
▁they	-216
▁D	-217
▁this	-218
ist	-219
▁go	-220
▁one	-221
▁been	-222
▁whe	-223
rov	-224
od	-225
ame	-226
▁But	-227
▁fa	-228
▁did	-229
▁ne	-230
▁wor	-231
hin	-232
un	-233
ther	-234
ge	-235
ard	-236
▁some	-237
▁will	-238
▁qu	-239
ano	-240
anov	-241
▁could	-242
▁by	-243
▁about	-244
▁said	-245
est	-246
ation	-247
are	-248
▁or	-249
art	-250
▁now	-251
ike	-252
au	-253
ind	-254
▁le	-255
▁un	-256
itch	-257
▁po	-258
way	-259
▁who	-260
em	-261
▁j	-262
hed	-263
oun	-264
ered	-265
ake	-266
▁se	-267
▁tim	-268
▁v	-269
▁like	-270
▁again	-271
az	-272
▁we	-273
ost	-274
▁beg	-275
ice	-276
▁L	-277
pt	-278
ie	-279
▁very	-280
ers	-281
ure	-282
▁if	-283
▁can	-284
ink	-285
ry	-286
ong	-287
own	-288
itt	-289
ide	-290
ya	-291
▁N	-292
nder	-293
▁Pet	-294
ried	-295
▁how	-296
▁whi	-297
▁come	-298
anovna	-299
▁more	-300
▁only	-301
▁She	-302
ort	-303
▁ro	-304
▁It	-305
▁into	-306
▁though	-307
onia	-308
ound	-309
▁af	-310
▁M	-311
ps	-312
▁You	-313
▁Sonia	-314
able	-315
▁any	-316
ress	-317
▁has	-318
ite	-319
▁com	-320
▁time	-321
ig	-322
ked	-323
han	-324
ate	-325
▁say	-326
▁fe	-327
ater	-328
omet	-329
urn	-330
▁Petrov	-331
▁don	-332
▁even	-333
ough	-334
▁br	-335
other	-336
imp	-337
▁off	-338
▁went	-339
fore	-340
▁sha	-341
umi	-342
umihin	-343
▁every	-344
▁when	-345
▁Raz	-346
▁hand	-347
dden	-348
▁somet	-349
▁Razumihin	-350
▁over	-351
reat	-352
▁then	-353
▁fl	-354
▁once	-355
▁thought	-356
ious	-357
▁himself	-358
ence	-359
▁under	-360
▁before	-361
ple	-362
▁tw	-363
ass	-364
right	-365
▁Iv	-366
ave	-367
ally	-368
ity	-369
ounia	-370
▁down	-371
thing	-372
▁sudden	-373
vid	-374
▁room	-375
hy	-376
ne	-377
med	-378
▁Dounia	-379
▁mad	-380
▁str	-381
▁pre	-382
▁which	-383
▁cl	-384
▁want	-385
▁must	-386
▁Ivanovna	-387
▁co	-388
▁K	-389
▁sp	-390
▁looked	-391
th	-392
▁just	-393
red	-394
ittle	-395
▁last	-396
▁here	-397
▁Petrovitch	-398
▁day	-399
▁O	-400
▁think	-401
▁per	-402
ag	-403
ack	-404
ose	-405
▁turn	-406
▁something	-407
ened	-408
▁little	-409
ull	-410
▁bl	-411
wn	-412
ance	-413
▁us	-414
ect	-415
bl	-416
▁such	-417
▁'	-418
▁door	-419
▁still	-420
ap	-421
▁ey	-422
ness	-423
▁get	-424
▁way	-425
ady	-426
▁spe	-427
hi	-428
▁pr	-429
▁began	-430
▁away	-431
▁suddenly	-432
▁pl	-433
▁tr	-434
▁rem	-435
▁fir	-436
▁nothing	-437
▁should	-438
▁after	-439
▁cr	-440
▁tell	-441
▁pe	-442
▁face	-443
ert	-444
▁ar	-445
▁eyes	-446
▁thing	-447
ud	-448
▁dis	-449
▁wom	-450
▁What	-451
▁came	-452
▁cried	-453
▁dr	-454
king	-455
▁_	-456
What	-457
fa	-458
ful	-459
rig	-460
day	-461
▁bet	-462
▁other	-463
▁sm	-464
▁G	-465
lov	-466
ved	-467
▁sc	-468
most	-469
ear	-470
▁made	-471
▁two	-472
▁let	-473
▁first	-474
ick	-475
os	-476
▁word	-477
▁right	-478
▁underst	-479
aï	-480
ng	-481
ase	-482
ina	-483
ree	-484
▁bec	-485
▁mom	-486
▁their	-487
▁moment	-488
ting	-489
end	-490
aterina	-491
▁gl	-492
▁bel	-493
▁good	-494
iry	-495
ving	-496
▁ind	-497
▁put	-498
▁without	-499
Yes	-500
▁ob	-501
▁may	-502
▁op	-503
▁exp	-504
▁thr	-505
▁old	-506
aïlov	-507
vidrig	-508
▁mother	-509
▁Katerina	-510
vidrigaïlov	-511
ated	-512
haps	-513
▁Rod	-514
cc	-515
▁Svidrigaïlov	-516
▁F	-517
orf	-518
orfiry	-519
▁almost	-520
▁tal	-521
▁long	-522
▁woman	-523
ment	-524
anc	-525
ft	-526
che	-527
▁Rom	-528
▁head	-529
▁than	-530
eep	-531
▁Porfiry	-532
ily	-533
▁yes	-534
uch	-535
ather	-536
nother	-537
ause	-538
pect	-539
here	-540
▁min	-541
ff	-542
▁why	-543
▁back	-544
▁cour	-545
▁looking	-546
co	-547
air	-548
▁pro	-549
▁understand	-550
cl	-551
ish	-552
▁cont	-553
▁Z	-554
eel	-555
ife	-556
▁cons	-557
▁great	-558
aking	-559
▁make	-560
lt	-561
ber	-562
hild	-563
▁lau	-564
▁asked	-565
▁another	-566
▁pass	-567
▁belie	-568
ute	-569
▁child	-570
▁seemed	-571
ning	-572
▁shall	-573
ise	-574
▁much	-575
▁going	-576
▁des	-577
▁imp	-578
▁own	-579
▁same	-580
▁cha	-581
▁They	-582
sw	-583
age	-584
ies	-585
▁take	-586
▁There	-587
▁turned	-588
ons	-589
otr	-590
▁ho	-591
▁stood	-592
ange	-593
yotr	-594
▁add	-595
li	-596
▁lo	-597
▁cle	-598
▁answ	-599
▁feel	-600
▁mean	-601
ched	-602
ople	-603
ertain	-604
atter	-605
▁felt	-606
▁part	-607
ty	-608
ren	-609
▁course	-610
oney	-611
▁pa	-612
▁stre	-613
▁took	-614
▁quite	-615
estion	-616
▁Pyotr	-617
man	-618
iness	-619
▁might	-620
ary	-621
▁money	-622
▁So	-623
▁simp	-624
less	-625
▁happ	-626
▁people	-627
▁wa	-628
▁myself	-629
▁believe	-630
▁wal	-631
ought	-632
▁hands	-633
▁question	-634
▁C	-635
hen	-636
ign	-637
ire	-638
▁wr	-639
▁kne	-640
▁heard	-641
▁remem	-642
ward	-643
▁perhaps	-644
▁att	-645
▁(	-646
ace	-647
ted	-648
ouse	-649
▁everything	-650
ens	-651
ine	-652
▁gr	-653
▁saw	-654
▁mind	-655
▁res	-656
ction	-657
te	-658
▁li	-659
pped	-660
▁got	-661
bly	-662
▁where	-663
ue	-664
..."	-665
▁inde	-666
urd	-667
ared	-668
▁well	-669
ci	-670
▁never	-671
ully	-672
▁our	-673
▁That	-674
▁heart	-675
ense	-676
ible	-677
▁certain	-678
ner	-679
▁en	-680
▁anything	-681
nt	-682
ears	-683
ister	-684
▁strange	-685
▁inst	-686
And	-687
ised	-688
▁ide	-689
ank	-690
▁dre	-691
▁sil	-692
▁because	-693
ied	-694
ways	-695
▁Mar	-696
terday	-697
▁better	-698
▁through	-699
▁left	-700
▁upon	-701
▁pers	-702
ced	-703
▁always	-704
▁pol	-705
▁life	-706
be	-707
sit	-708
unk	-709
▁In	-710
▁Th	-711
▁ste	-712
▁indeed	-713
▁sister	-714
▁sat	-715
▁knew	-716
▁young	-717
int	-718
ria	-719
▁Why	-720
▁sort	-721
▁told	-722
▁stand	-723
▁E	-724
▁At	-725
ings	-726
▁fact	-727
▁forg	-728
▁most	-729
▁really	-730
▁simply	-731
▁yesterday	-732
But	-733
per	-734
▁ill	-735
▁won	-736
fully	-737
▁three	-738
▁yourself	-739
lex	-740
▁Alex	-741
ach	-742
ained	-743
▁Alexand	-744
arly	-745
▁ser	-746
▁dist	-747
▁shout	-748
▁herself	-749
ged	-750
rok	-751
▁Pul	-752
rovna	-753
rying	-754
cheria	-755
▁Pulcheria	-756
▁Alexandrovna	-757
▁im	-758
▁fell	-759
up	-760
▁Lu	-761
ject	-762
▁ter	-763
ently	-764
▁conf	-765
▁speak	-766
▁pres	-767
▁table	-768
▁whole	-769
▁brother	-770
irl	-771
oss	-772
▁ad	-773
ating	-774
tered	-775
▁does	-776
dot	-777
ret	-778
▁ir	-779
▁new	-780
▁Rodya	-781
▁drunk	-782
▁house	-783
▁round	-784
▁minute	-785
icul	-786
oubl	-787
▁acc	-788
No	-789
Why	-790
vdot	-791
▁bus	-792
▁ins	-793
vdotya	-794
▁matter	-795
▁street	-796
▁Romanovna	-797
iff	-798
▁give	-799
▁wait	-800
ressed	-801
atch	-802
zhin	-803
▁His	-804
▁end	-805
▁girl	-806
▁place	-807
emy	-808
owed	-809
▁hel	-810
▁find	-811
▁murd	-812
▁Luzhin	-813
▁children	-814
el	-815
airs	-816
ying	-817
▁ang	-818
▁care	-819
▁gave	-820
▁open	-821
▁Avdotya	-822
▁answered	-823
It	-824
ile	-825
▁em	-826
aken	-827
▁sur	-828
ering	-829
▁help	-830
▁soon	-831
▁remember	-832
iss	-833
ock	-834
▁fo	-835
▁ent	-836
▁mar	-837
▁police	-838
rem	-839
▁har	-840
emyon	-841
▁Well	-842
▁list	-843
▁things	-844
ka	-845
▁ap	-846
wards	-847
▁home	-848
orr	-849
▁bo	-850
▁set	-851
oth	-852
▁sl	-853
▁ass	-854
▁rep	-855
▁sin	-856
...."	-857
▁rest	-858
▁seen	-859
▁posit	-860
▁Semyon	-861
iz	-862
ang	-863
▁If	-864
▁aw	-865
▁God	-866
▁ask	-867
ushed	-868
▁wind	-869
▁work	-870
iously	-871
anovitch	-872
ix	-873
ool	-874
ory	-875
▁keep	-876
eas	-877
▁expl	-878
▁these	-879
▁walked	-880
ves	-881
▁ke	-882
▁laugh	-883
▁night	-884
▁es	-885
isit	-886
▁lod	-887
▁diff	-888
▁idea	-889
▁being	-890
▁those	-891
He	-892
ively	-893
▁half	-894
▁read	-895
▁while	-896
oud	-897
ount	-898
▁fanc	-899
oubles	-900
▁dec	-901
▁hur	-902
▁mon	-903
▁mor	-904
aught	-905
▁poss	-906
▁vo	-907
erest	-908
riend	-909
▁crim	-910
▁Semyonov	-911
ath	-912
ces	-913
▁hear	-914
▁roubles	-915
uck	-916
▁men	-917
ready	-918
▁wanted	-919
ms	-920
get	-921
mit	-922
▁We	-923
ever	-924
that	-925
▁yet	-926
▁friend	-927
▁already	-928
use	-929
▁Nik	-930
▁cor	-931
▁alone	-932
▁inter	-933
▁Rodion	-934
▁window	-935
raid	-936
▁exc	-937
▁run	-938
▁sto	-939
▁begin	-940
▁light	-941
▁years	-942
ser	-943
amet	-944
asya	-945
imov	-946
vers	-947
▁bes	-948
▁hon	-949
▁ple	-950
▁lodg	-951
ametov	-952
▁visit	-953
▁words	-954
Oh	-955
pr	-956
ru	-957
sp	-958
▁Am	-959
aint	-960
▁hast	-961
astasya	-962
▁shouted	-963
▁interest	-964
▁standing	-965
ark	-966
lly	-967
▁How	-968
▁inf	-969
▁ran	-970
▁ref	-971
▁conv	-972
▁didn	-973
▁need	-974
▁point	-975
▁afraid	-976
▁Zametov	-977
ord	-978
▁Do	-979
▁hu	-980
▁te	-981
▁done	-982
▁flat	-983
gether	-984
▁notic	-985
ossimov	-986
uttered	-987
▁business	-988
ok	-989
▁Le	-990
ctly	-991
▁case	-992
▁land	-993
▁added	-994
▁Zossimov	-995
▁Romanovitch	-996
led	-997
▁la	-998
ions	-999
ross	-1000
▁hour	-1001
▁drink	-1002
▁least	-1003
▁smile	-1004
▁Nastasya	-1005
ep	-1006
iat	-1007
▁Mr	-1008
▁ra	-1009
▁Then	-1010
▁chan	-1011
▁found	-1012
▁voice	-1013
▁gen	-1014
▁brok	-1015
by	-1016
arm	-1017
cept	-1018
▁All	-1019
▁cap	-1020
▁gre	-1021
▁hat	-1022
▁stra	-1023
▁talk	-1024
▁father	-1025
bt	-1026
▁ac	-1027
iven	-1028
▁gone	-1029
▁side	-1030
▁rather	-1031
▁present	-1032
.'	-1033
ial	-1034
▁No	-1035
▁gu	-1036
▁	-1037
e	-1038
t	-1039
a	-1040
o	-1041
n	-1042
i	-1043
h	-1044
s	-1045
r	-1046
d	-1047
l	-1048
u	-1049
m	-1050
y	-1051
w	-1052
c	-1053
g	-1054
f	-1055
,	-1056
.	-1057
p	-1058
b	-1059
v	-1060
k	-1061
"	-1062
I	-1063
'	-1064
!	-1065
?	-1066
-	-1067
A	-1068
H	-1069
T	-1070
R	-1071
S	-1072
W	-1073
P	-1074
x	-1075
;	-1076
z	-1077
B	-1078
Y	-1079
q	-1080
D	-1081
j	-1082
N	-1083
L	-1084
_	-1085
M	-1086
O	-1087
G	-1088
K	-1089
F	-1090
:	-1091
C	-1092
ï	-1093
E	-1094
Z	-1095
(	-1096
